//#ifdef __has_attribute
//#define HAVE_ATTRIBUTE(x) __has_attribute(x)
//#else
//#define HAVE_ATTRIBUTE(x) 0
//#endif
//#if HAVE_ATTRIBUTE(aligned) || (defined(__GNUC__) && !defined(__clang__))
//#define DATA_ALIGN_ATTRIBUTE __attribute__((aligned(4)))
//#else
//#define DATA_ALIGN_ATTRIBUTE
//#endif

unsigned char MasModel[] = {
	0x28, 0x00, 0x00, 0x00, 0x54, 0x46, 0x4c, 0x33, 0x00, 0x00, 0x00, 0x00, 
	0x00, 0x00, 0x00, 0x00, 0x00, 0x00, 0x00, 0x00, 0x00, 0x00, 0x12, 0x00, 
	0x1c, 0x00, 0x04, 0x00, 0x08, 0x00, 0x0c, 0x00, 0x10, 0x00, 0x14, 0x00, 
	0x00, 0x00, 0x18, 0x00, 0x12, 0x00, 0x00, 0x00, 0x03, 0x00, 0x00, 0x00, 
	0x40, 0x15, 0x00, 0x00, 0x4c, 0x11, 0x00, 0x00, 0x34, 0x11, 0x00, 0x00, 
	0x3c, 0x00, 0x00, 0x00, 0x04, 0x00, 0x00, 0x00, 0x01, 0x00, 0x00, 0x00, 
	0x0c, 0x00, 0x00, 0x00, 0x08, 0x00, 0x0c, 0x00, 0x04, 0x00, 0x08, 0x00, 
	0x08, 0x00, 0x00, 0x00, 0x08, 0x00, 0x00, 0x00, 0x09, 0x00, 0x00, 0x00, 
	0x13, 0x00, 0x00, 0x00, 0x6d, 0x69, 0x6e, 0x5f, 0x72, 0x75, 0x6e, 0x74, 
	0x69, 0x6d, 0x65, 0x5f, 0x76, 0x65, 0x72, 0x73, 0x69, 0x6f, 0x6e, 0x00, 
	0x0a, 0x00, 0x00, 0x00, 0xe0, 0x10, 0x00, 0x00, 0xcc, 0x10, 0x00, 0x00, 
	0xb0, 0x0e, 0x00, 0x00, 0x8c, 0x0e, 0x00, 0x00, 0x78, 0x06, 0x00, 0x00, 
	0x64, 0x00, 0x00, 0x00, 0x58, 0x00, 0x00, 0x00, 0x44, 0x00, 0x00, 0x00, 
	0x30, 0x00, 0x00, 0x00, 0x04, 0x00, 0x00, 0x00, 0xae, 0xee, 0xff, 0xff, 
	0x04, 0x00, 0x00, 0x00, 0x10, 0x00, 0x00, 0x00, 0x31, 0x2e, 0x35, 0x2e, 
	0x30, 0x00, 0x00, 0x00, 0x00, 0x00, 0x00, 0x00, 0x00, 0x00, 0x00, 0x00, 
	0x00, 0x00, 0x00, 0x00, 0x00, 0x00, 0x00, 0x00, 0x00, 0x00, 0x00, 0x00, 
	0x7c, 0xeb, 0xff, 0xff, 0x00, 0x00, 0x00, 0x00, 0x00, 0x00, 0x00, 0x00, 
	0x00, 0x00, 0x00, 0x00, 0x8c, 0xeb, 0xff, 0xff, 0x00, 0x00, 0x00, 0x00, 
	0x00, 0x00, 0x00, 0x00, 0x00, 0x00, 0x00, 0x00, 0x9c, 0xeb, 0xff, 0xff, 
	0x00, 0x00, 0x00, 0x00, 0xfe, 0xee, 0xff, 0xff, 0x04, 0x00, 0x00, 0x00, 
	0x00, 0x06, 0x00, 0x00, 0xa6, 0xff, 0xb8, 0xbe, 0x99, 0x67, 0x04, 0x3e, 
	0x20, 0x4b, 0x0f, 0xbc, 0xac, 0x98, 0x44, 0x3e, 0x20, 0xee, 0xc6, 0xbb, 
	0x8d, 0x79, 0x9e, 0xbe, 0xeb, 0x65, 0x13, 0xbe, 0x26, 0x4c, 0x9e, 0xbd, 
	0x58, 0x4f, 0xd7, 0x3c, 0x0c, 0x53, 0x76, 0xbd, 0x54, 0x29, 0x81, 0x3d, 
	0x04, 0x35, 0x29, 0xbe, 0x6f, 0x6d, 0xfc, 0x3d, 0x5f, 0x09, 0xbb, 0x3e, 
	0x91, 0xa1, 0x02, 0x3e, 0x01, 0xcd, 0xe4, 0xbd, 0xfd, 0xc1, 0x2a, 0xbf, 
	0x3a, 0xa7, 0xf8, 0x3d, 0x10, 0x28, 0x8d, 0x3c, 0x54, 0xbe, 0x6e, 0x3e, 
	0xfe, 0x78, 0x37, 0xbe, 0x5a, 0x93, 0xf6, 0x3d, 0x7d, 0xdc, 0xf6, 0x3d, 
	0x2f, 0x2c, 0x52, 0x3e, 0x1b, 0x2b, 0x53, 0xbe, 0x10, 0xea, 0x80, 0xbc, 
	0xcd, 0x05, 0xfc, 0xbd, 0x32, 0x50, 0x4f, 0x3e, 0x22, 0xae, 0x8f, 0x3d, 
	0xbf, 0xba, 0x0d, 0x3e, 0xc9, 0x24, 0x0a, 0x3e, 0x9e, 0x10, 0x5f, 0xbf, 
	0x68, 0xf6, 0x9a, 0x3c, 0xf6, 0x1e, 0xe2, 0x3d, 0x83, 0x7a, 0xc9, 0xbc, 
	0xd3, 0xca, 0x0f, 0x3e, 0x41, 0x6a, 0x25, 0x3e, 0x9b, 0xe1, 0x41, 0xbe, 
	0x6b, 0x37, 0x12, 0xbe, 0xb3, 0x5c, 0x09, 0xbe, 0xa5, 0xb5, 0x38, 0xbe, 
	0x0a, 0x68, 0x97, 0x3d, 0x08, 0x0c, 0x06, 0x3e, 0xad, 0x1f, 0x14, 0xbe, 
	0x7c, 0xcc, 0x52, 0x3d, 0x69, 0xc0, 0x38, 0x3e, 0x3a, 0x96, 0xf2, 0xbd, 
	0xbc, 0xc0, 0xd2, 0x3e, 0xf1, 0x81, 0xff, 0xbd, 0x86, 0x1b, 0x9d, 0xbd, 
	0x1b, 0x96, 0xed, 0xbd, 0x71, 0x10, 0x0a, 0x3e, 0x99, 0x9f, 0x78, 0x3e, 
	0xc6, 0xa3, 0x08, 0x3e, 0x30, 0xd2, 0x57, 0x3c, 0x3c, 0x5b, 0x63, 0xbe, 
	0x7e, 0x37, 0x3d, 0xbe, 0x68, 0xb9, 0xf9, 0xbe, 0xb6, 0x71, 0xbb, 0x3d, 
	0xe8, 0x52, 0xd0, 0x3e, 0xff, 0x6e, 0x4f, 0xbe, 0xec, 0x80, 0x2f, 0x3d, 
	0x96, 0x68, 0xa0, 0x3d, 0x3d, 0x6a, 0x4f, 0x3e, 0x80, 0xcf, 0xd5, 0xbb, 
	0xbc, 0x66, 0x1e, 0xbd, 0x12, 0xbf, 0x90, 0x3d, 0xa9, 0x63, 0x42, 0xbe, 
	0xd6, 0xb7, 0x8e, 0xbd, 0x76, 0xc5, 0xf6, 0x3d, 0x3e, 0xb6, 0xd8, 0x3d, 
	0xe7, 0x5c, 0x2a, 0x3e, 0x53, 0xf6, 0x4b, 0x3e, 0xda, 0x41, 0xe6, 0xbd, 
	0xc0, 0xa0, 0xe2, 0xbc, 0x7b, 0x01, 0x0b, 0x3e, 0x2a, 0x87, 0xb9, 0xbd, 
	0x30, 0x36, 0x42, 0x3c, 0x5f, 0x17, 0x0b, 0xbe, 0xb5, 0x36, 0x9f, 0xbd, 
	0xde, 0xa2, 0x85, 0x3d, 0xc3, 0x15, 0x99, 0x3e, 0xca, 0xef, 0x2f, 0xbe, 
	0x1d, 0xe9, 0xdb, 0xbd, 0xd5, 0xca, 0x16, 0x3e, 0x2f, 0x0f, 0x87, 0x3e, 
	0xae, 0x65, 0x0a, 0x3e, 0x21, 0x1c, 0xd8, 0xbd, 0xb2, 0xac, 0x1a, 0xbe, 
	0xe2, 0x7a, 0x71, 0x3d, 0x27, 0xbb, 0x1e, 0xbe, 0x99, 0xc2, 0x44, 0xbe, 
	0x63, 0x87, 0x06, 0x3e, 0xa2, 0x32, 0xab, 0x3d, 0x4a, 0x6c, 0xf4, 0x3d, 
	0xd5, 0xe1, 0x05, 0xbe, 0xb0, 0xb6, 0x1a, 0x3e, 0x02, 0xb8, 0xed, 0x3d, 
	0xbd, 0x57, 0xce, 0xbd, 0xab, 0x36, 0xd8, 0xbd, 0x23, 0x55, 0x02, 0x3e, 
	0xb3, 0xc8, 0xc7, 0xbc, 0x00, 0x8e, 0xc1, 0xbe, 0x0c, 0x8f, 0x72, 0x3d, 
	0xd0, 0xfb, 0xbc, 0xbd, 0x9b, 0x9a, 0x46, 0xbe, 0x75, 0xcb, 0x83, 0x3d, 
	0x78, 0xb3, 0x0a, 0xbe, 0x6a, 0x71, 0xd6, 0xbd, 0xa0, 0x79, 0x75, 0xbd, 
	0x6d, 0x3e, 0x92, 0xbe, 0x92, 0xd1, 0xd5, 0x3c, 0x05, 0x7c, 0x08, 0x3f, 
	0xd3, 0x1e, 0x48, 0xbe, 0xee, 0xf9, 0x2c, 0xbe, 0xfb, 0x17, 0x36, 0x3e, 
	0x40, 0xef, 0x48, 0xbb, 0x3a, 0x5e, 0x05, 0xbe, 0x6a, 0xd5, 0xed, 0x3e, 
	0x68, 0x2f, 0xa8, 0x3d, 0xc0, 0x59, 0x83, 0xbd, 0x02, 0x4b, 0xf4, 0xbd, 
	0x1e, 0x0f, 0xa5, 0x3d, 0xf4, 0x28, 0x01, 0xbe, 0x7c, 0x18, 0x96, 0xbf, 
	0xd9, 0xad, 0x69, 0x3e, 0x58, 0x0d, 0x9f, 0xbc, 0x64, 0x12, 0x62, 0xbd, 
	0xf7, 0x97, 0x59, 0xbd, 0xec, 0x8d, 0x4e, 0xbe, 0x12, 0xfe, 0x3d, 0xbe, 
	0x6c, 0x9c, 0xca, 0x3d, 0x11, 0x1b, 0x2a, 0xbe, 0xa7, 0x73, 0x2b, 0xbf, 
	0x0b, 0xaa, 0x1b, 0xbe, 0x10, 0xec, 0x04, 0x3c, 0x25, 0xf8, 0xbe, 0xbd, 
	0xa4, 0x60, 0x45, 0x3e, 0x44, 0xfa, 0xdb, 0xbd, 0x6c, 0xe0, 0xf0, 0xbd, 
	0xc2, 0x55, 0x3d, 0x3e, 0x8f, 0xd9, 0xf3, 0xbd, 0x00, 0xa5, 0x3e, 0xbd, 
	0x68, 0x5c, 0x4b, 0xbe, 0x99, 0xd9, 0xa4, 0x3e, 0x2e, 0x7b, 0x2c, 0x3e, 
	0x7c, 0x2f, 0x34, 0x3e, 0xb0, 0xda, 0x4c, 0xbd, 0x6f, 0x17, 0x41, 0xbe, 
	0x80, 0x0c, 0x42, 0xbe, 0xe4, 0x4c, 0x75, 0xbe, 0xb0, 0x35, 0x34, 0x3e, 
	0xd2, 0xf9, 0xdd, 0xbd, 0xfe, 0xde, 0xc4, 0x3d, 0xca, 0xe0, 0xdd, 0xbd, 
	0x08, 0x0c, 0x70, 0xbd, 0x86, 0xf2, 0xd5, 0x3d, 0xb5, 0x67, 0xad, 0xbd, 
	0x8e, 0x7d, 0xbe, 0xbd, 0x6f, 0xa5, 0x8e, 0x3f, 0x35, 0xf5, 0x57, 0x3e, 
	0xff, 0x3d, 0x19, 0x3e, 0x00, 0xbb, 0xa2, 0x3c, 0xba, 0xff, 0x94, 0x3d, 
	0xc4, 0x2c, 0x42, 0xbe, 0x58, 0x3c, 0xd5, 0x3d, 0xb6, 0x89, 0x46, 0x3d, 
	0x3f, 0x70, 0xd3, 0x3c, 0x00, 0xa5, 0x6f, 0xbd, 0x8c, 0xa6, 0x5a, 0xbd, 
	0x73, 0x79, 0xaa, 0x3d, 0x80, 0x96, 0xe2, 0x3c, 0x20, 0xfd, 0xcf, 0xbb, 
	0xbe, 0xb3, 0x86, 0xbd, 0xd3, 0x87, 0x84, 0xbd, 0x07, 0x70, 0xbc, 0x3e, 
	0x50, 0xdb, 0xb2, 0xbd, 0x06, 0x66, 0x96, 0x3d, 0x61, 0xb2, 0xf7, 0xbd, 
	0xd1, 0x24, 0x5a, 0xbd, 0xda, 0x41, 0x35, 0xbc, 0x32, 0x2c, 0x19, 0xbe, 
	0x1e, 0xd2, 0x20, 0xbe, 0xc2, 0x01, 0x38, 0xbd, 0x0a, 0x1c, 0xe2, 0x3d, 
	0xd6, 0x3e, 0x5e, 0xbe, 0x4b, 0xcd, 0x0e, 0x3e, 0xf6, 0xd8, 0x42, 0x3f, 
	0xab, 0x0e, 0x2d, 0x3e, 0xd4, 0x4f, 0x0d, 0xbd, 0x12, 0x1e, 0x31, 0xbe, 
	0x30, 0x76, 0x27, 0xbe, 0x0f, 0x92, 0xc6, 0xbd, 0x6a, 0x60, 0x34, 0xbe, 
	0xd7, 0x8d, 0x2f, 0x3e, 0xf6, 0x0a, 0xd6, 0x3d, 0x42, 0x00, 0xd4, 0xbb, 
	0x3c, 0xa2, 0x0d, 0x3d, 0x98, 0xcd, 0xa3, 0x3c, 0xa9, 0x9a, 0xbb, 0x3c, 
	0x8b, 0xae, 0xf1, 0xbd, 0x81, 0x67, 0x0e, 0xbd, 0x99, 0x23, 0x43, 0x3e, 
	0x60, 0xb9, 0xcd, 0x3c, 0x9f, 0xa5, 0x12, 0x3d, 0x5a, 0x6c, 0xf0, 0x3d, 
	0x77, 0x3b, 0xa2, 0x3c, 0x27, 0x42, 0x57, 0x3d, 0x82, 0x79, 0xee, 0x3d, 
	0x00, 0x18, 0x52, 0x3e, 0x60, 0x9f, 0x13, 0x3e, 0x33, 0x96, 0x4d, 0xbe, 
	0x60, 0x58, 0x0a, 0x3c, 0xbf, 0x2d, 0xb0, 0xbd, 0x53, 0x1c, 0x1e, 0x3e, 
	0x70, 0xf0, 0xe1, 0xbd, 0x4b, 0x46, 0x33, 0x3e, 0x83, 0x4c, 0xa1, 0xbd, 
	0x08, 0x40, 0xe2, 0xbc, 0x40, 0x73, 0xe8, 0xbd, 0x08, 0x08, 0xb3, 0xbc, 
	0x12, 0xe4, 0x8c, 0x3d, 0x6c, 0xfa, 0x66, 0xbd, 0xf9, 0x04, 0x28, 0x3e, 
	0xeb, 0xc5, 0x00, 0x3e, 0xa2, 0x38, 0x58, 0xbe, 0x63, 0xba, 0xd8, 0xbc, 
	0x94, 0x77, 0x42, 0xbd, 0x7d, 0xea, 0x1f, 0xbe, 0xed, 0x7d, 0xa5, 0xbd, 
	0xf2, 0x03, 0x18, 0x3e, 0x76, 0x91, 0xf9, 0xbd, 0xd4, 0x3b, 0x9c, 0xbd, 
	0x3d, 0x3d, 0x32, 0xbe, 0xef, 0xc1, 0xc9, 0x3c, 0x58, 0xcc, 0xd4, 0x3c, 
	0x36, 0x73, 0x0c, 0xbe, 0x44, 0x89, 0x03, 0x3d, 0xfe, 0x93, 0xf6, 0xbd, 
	0x97, 0x72, 0x2c, 0x3e, 0x1b, 0xd8, 0xf7, 0x3d, 0x53, 0x71, 0x0f, 0xbe, 
	0x9b, 0x45, 0x05, 0x3e, 0x28, 0xde, 0x9e, 0x3c, 0x15, 0x12, 0xfe, 0xbd, 
	0x6b, 0x51, 0x2c, 0x3e, 0xa3, 0x9d, 0x10, 0x3d, 0x6d, 0x01, 0x07, 0x3d, 
	0x9a, 0xab, 0xfb, 0x3d, 0x5c, 0xf6, 0xfe, 0x3c, 0x10, 0xe5, 0xce, 0xbd, 
	0xdd, 0x06, 0x3b, 0x3e, 0xd3, 0x4b, 0xe7, 0x3f, 0x87, 0x7a, 0xbc, 0x3d, 
	0x00, 0x56, 0xb6, 0xb9, 0x9c, 0xba, 0x73, 0xbd, 0xbd, 0xd7, 0x70, 0x3e, 
	0x1a, 0x97, 0x61, 0xbe, 0x00, 0x45, 0x1c, 0xbc, 0xc7, 0x75, 0x28, 0x3d, 
	0xa9, 0xba, 0xd4, 0xbd, 0xdb, 0xd6, 0x96, 0x3f, 0x47, 0x1e, 0xe3, 0xbb, 
	0x40, 0x45, 0x4d, 0xbe, 0x2a, 0xce, 0xb1, 0x3d, 0x37, 0x9a, 0x69, 0x3d, 
	0x25, 0x5c, 0xc3, 0xbe, 0x59, 0xce, 0x02, 0x3e, 0x5f, 0x0e, 0x6c, 0xbd, 
	0xf5, 0xeb, 0xd3, 0xbe, 0x06, 0x79, 0xc0, 0x3d, 0x91, 0x30, 0x3c, 0x3e, 
	0x39, 0x6b, 0x01, 0x3f, 0x95, 0x5c, 0x58, 0xbe, 0xad, 0x4c, 0x08, 0x3e, 
	0x1c, 0x89, 0x6f, 0xbd, 0x5c, 0xc7, 0x40, 0x3d, 0x30, 0xea, 0x5c, 0x3c, 
	0x40, 0x58, 0xac, 0xbe, 0x02, 0xde, 0x10, 0x3e, 0xe1, 0x18, 0x0f, 0x3e, 
	0x4c, 0xc5, 0x38, 0xbd, 0x8d, 0x1f, 0x54, 0x3e, 0xa0, 0xd6, 0x64, 0xbe, 
	0x96, 0x98, 0x82, 0x3d, 0x41, 0x8c, 0x99, 0xbe, 0x3c, 0x1e, 0x41, 0x3e, 
	0x45, 0x6f, 0x1a, 0xbf, 0xc8, 0x63, 0x4b, 0xbd, 0x86, 0xb1, 0x93, 0xbd, 
	0x86, 0xf6, 0x4b, 0xbe, 0xb6, 0xd2, 0xc6, 0x3d, 0xcc, 0x24, 0x1d, 0x3d, 
	0xe1, 0xfb, 0x61, 0xbe, 0x04, 0x87, 0x75, 0x3e, 0x79, 0xa7, 0x17, 0x3e, 
	0x64, 0x3e, 0x93, 0xbd, 0xc0, 0x53, 0x32, 0x3c, 0x86, 0x4b, 0xa2, 0xbe, 
	0xf2, 0x8d, 0x86, 0x3d, 0xb8, 0xe2, 0xf1, 0x3c, 0xb7, 0xf6, 0x00, 0xbe, 
	0x11, 0x03, 0x11, 0x3e, 0x42, 0x53, 0x23, 0xc0, 0x10, 0xfd, 0x89, 0x3c, 
	0x4f, 0xca, 0x36, 0xbe, 0xf7, 0x6d, 0x6f, 0xbd, 0x72, 0xce, 0x92, 0xbe, 
	0xa1, 0x0a, 0x0c, 0xbe, 0xe8, 0x9e, 0xf2, 0xbd, 0x2b, 0x48, 0x41, 0x3e, 
	0x0e, 0xa0, 0x81, 0x3e, 0xf6, 0xd4, 0xe9, 0xbd, 0x0e, 0x67, 0x46, 0x3f, 
	0x68, 0xba, 0xd8, 0x3c, 0xa3, 0x6d, 0x02, 0xc0, 0xc0, 0xc2, 0x31, 0x3b, 
	0x38, 0xd7, 0x1f, 0xbd, 0x00, 0x9d, 0x17, 0x3a, 0xf0, 0x9f, 0x47, 0xbe, 
	0xe9, 0x14, 0x2d, 0x3e, 0xc2, 0x0f, 0x39, 0xbe, 0x41, 0x7b, 0x24, 0x3e, 
	0x8c, 0x60, 0x66, 0x3d, 0x8c, 0xea, 0x39, 0x3e, 0x50, 0x8d, 0x2d, 0xbc, 
	0x6a, 0x6f, 0xa7, 0x3d, 0xa2, 0x48, 0x4e, 0xbe, 0xc6, 0x4d, 0xac, 0x3d, 
	0x49, 0x30, 0xca, 0x3c, 0x2e, 0x82, 0x43, 0xbe, 0x40, 0x5d, 0xa0, 0xbc, 
	0x31, 0xeb, 0x9d, 0x3e, 0xe0, 0x1b, 0x08, 0xbc, 0xc6, 0x06, 0x50, 0xbe, 
	0x3f, 0xd3, 0x46, 0xbd, 0x5a, 0x16, 0xde, 0x3d, 0x54, 0x76, 0xc1, 0xbd, 
	0xfd, 0x75, 0xe2, 0x3d, 0xca, 0x27, 0xe6, 0x3d, 0x60, 0x78, 0xe8, 0xbc, 
	0xcd, 0xa1, 0x84, 0xbe, 0x62, 0xc0, 0x1f, 0xbe, 0x89, 0x6a, 0x56, 0x3e, 
	0x20, 0xf4, 0x98, 0xbc, 0x99, 0x5e, 0x31, 0xbe, 0x55, 0xf6, 0x2a, 0x3e, 
	0x8e, 0x89, 0xa9, 0x3d, 0xc4, 0xa6, 0x1d, 0xbe, 0x30, 0x2a, 0xb2, 0xbd, 
	0x9e, 0x1a, 0x95, 0xbd, 0xe3, 0x0b, 0x07, 0x3e, 0x16, 0x91, 0x77, 0xbc, 
	0x95, 0x91, 0xf2, 0xbd, 0xcb, 0xde, 0xa3, 0x3d, 0x9d, 0x97, 0x33, 0x3e, 
	0xfb, 0xd6, 0x4c, 0xbe, 0x11, 0x9b, 0xb1, 0x3d, 0xd7, 0x46, 0xa3, 0x3e, 
	0x00, 0xfa, 0xbd, 0x3b, 0xe8, 0xe4, 0x86, 0x3c, 0x6c, 0x6e, 0x10, 0x3d, 
	0x8d, 0xef, 0xd1, 0xbd, 0xc0, 0xa9, 0x82, 0x3b, 0x79, 0x6c, 0x0e, 0x3e, 
	0x7e, 0xd2, 0x43, 0xbe, 0xda, 0x2e, 0x8b, 0x3e, 0x7f, 0x1e, 0x12, 0xbe, 
	0xbf, 0x3f, 0x21, 0xbf, 0x92, 0xd9, 0x58, 0xbe, 0xf0, 0x94, 0xd1, 0x3c, 
	0xb6, 0x53, 0xfa, 0x3d, 0xb2, 0x34, 0xa5, 0x3d, 0x6e, 0xaa, 0xb3, 0x3d, 
	0x5f, 0xae, 0x57, 0xbf, 0x0f, 0xd5, 0x48, 0x3e, 0xb6, 0x48, 0xae, 0x3c, 
	0xfa, 0x75, 0x38, 0x3e, 0x50, 0x51, 0xac, 0xbc, 0xb3, 0x32, 0x57, 0xbd, 
	0x04, 0x99, 0xc8, 0xbf, 0xa4, 0x43, 0x25, 0xbf, 0x5e, 0xae, 0x80, 0x3d, 
	0x15, 0x60, 0x2e, 0xbe, 0x00, 0x00, 0x00, 0x00, 0x0e, 0xf5, 0xff, 0xff, 
	0x04, 0x00, 0x00, 0x00, 0x00, 0x08, 0x00, 0x00, 0x17, 0xb8, 0x62, 0xbe, 
	0xce, 0xf1, 0xa4, 0x3d, 0xa9, 0x6b, 0xef, 0x3d, 0x34, 0x59, 0xe2, 0x3d, 
	0x12, 0xdb, 0xff, 0x3c, 0x44, 0xfb, 0x18, 0xbe, 0x15, 0x3d, 0x12, 0x3d, 
	0x5d, 0xe6, 0x1a, 0x3e, 0x90, 0x70, 0x35, 0x3e, 0xdd, 0x3e, 0x29, 0xbe, 
	0xba, 0x72, 0x3f, 0xbe, 0x80, 0x39, 0xcc, 0xbc, 0x14, 0xe3, 0xc0, 0xbd, 
	0x70, 0x99, 0x8c, 0x3d, 0x2f, 0xba, 0xed, 0x3d, 0x9b, 0xc5, 0xe0, 0x3d, 
	0x4d, 0x9c, 0x4d, 0xbe, 0xa8, 0xc6, 0xb8, 0x3d, 0x78, 0xab, 0x02, 0x3e, 
	0x90, 0x29, 0xa1, 0xbd, 0x23, 0x3c, 0x56, 0x3e, 0xed, 0x79, 0x50, 0xbe, 
	0x5f, 0x4e, 0xbd, 0xbd, 0xea, 0xaa, 0x12, 0x3e, 0x9c, 0xcb, 0x24, 0x3e, 
	0x56, 0x2d, 0x04, 0x3e, 0xa9, 0xd3, 0x0e, 0x3e, 0x98, 0xba, 0x45, 0xbd, 
	0x0c, 0xc8, 0xc5, 0x3d, 0x00, 0x40, 0x1b, 0x37, 0x9f, 0x8e, 0xc2, 0xbd, 
	0xde, 0xd7, 0x90, 0xbd, 0x6c, 0x00, 0x4e, 0xbd, 0x10, 0xd1, 0xab, 0x3d, 
	0x7b, 0xd8, 0x20, 0xbe, 0x60, 0x49, 0xb9, 0xbd, 0xaa, 0xdf, 0x91, 0x3b, 
	0xf9, 0x58, 0x98, 0x3d, 0xcf, 0x7d, 0xe7, 0x3d, 0x5a, 0x30, 0xc2, 0x3d, 
	0x27, 0x57, 0x10, 0xbe, 0x47, 0x97, 0xa6, 0x3d, 0x6f, 0xb1, 0x00, 0x3d, 
	0x04, 0x2f, 0x25, 0x3d, 0xbc, 0x7f, 0x87, 0x3d, 0x73, 0x09, 0x1f, 0xbe, 
	0xc4, 0xcd, 0x30, 0xbe, 0x60, 0x31, 0xaf, 0x3d, 0x74, 0x8b, 0x22, 0x3e, 
	0x9e, 0x63, 0xc2, 0xbc, 0x46, 0xdf, 0xd3, 0xbc, 0x3b, 0xc3, 0x0d, 0xbe, 
	0x0b, 0x22, 0x9e, 0x3d, 0x83, 0xfc, 0x0f, 0x3e, 0x39, 0xb3, 0xf0, 0xbd, 
	0x26, 0x10, 0x8a, 0xbd, 0x50, 0xfe, 0x1d, 0x3c, 0x26, 0x50, 0x2d, 0xbe, 
	0x94, 0xa9, 0x0e, 0xbe, 0x34, 0x70, 0x94, 0x3d, 0x34, 0x60, 0x4c, 0xbd, 
	0x69, 0xed, 0x1b, 0xbe, 0xf8, 0x3a, 0xe7, 0x3c, 0x40, 0xdb, 0xeb, 0x3d, 
	0xdc, 0xc8, 0x82, 0xbe, 0xa0, 0x88, 0xd9, 0x3a, 0xe4, 0x2a, 0x89, 0x3d, 
	0xbb, 0xc6, 0x4e, 0x3e, 0xc3, 0xc9, 0xca, 0xbd, 0x90, 0x64, 0x31, 0x3e, 
	0x7f, 0x00, 0x29, 0xbc, 0xbd, 0xf6, 0xb0, 0x3b, 0xeb, 0x0b, 0xf5, 0x3c, 
	0x70, 0xb7, 0x4a, 0xbe, 0xfb, 0xb0, 0x16, 0x3e, 0xa2, 0x44, 0xa5, 0xbc, 
	0xfa, 0x4a, 0x15, 0x3e, 0xdb, 0x66, 0x89, 0x3d, 0x78, 0x2c, 0x10, 0x3e, 
	0xed, 0xb4, 0x4f, 0xbe, 0xe6, 0x37, 0xcc, 0x3d, 0xe0, 0x17, 0xba, 0xbb, 
	0x89, 0x48, 0xb2, 0x3d, 0xbc, 0xfa, 0xfb, 0x3d, 0xa8, 0x29, 0x53, 0x3e, 
	0xe0, 0x63, 0x67, 0xbc, 0x54, 0xe2, 0x46, 0xbe, 0xc0, 0xdf, 0xd9, 0xbc, 
	0x2f, 0xa8, 0x82, 0x3d, 0x77, 0x0a, 0x36, 0xbe, 0x7c, 0xc2, 0xab, 0xbb, 
	0x42, 0xd9, 0x16, 0x3e, 0x1a, 0x02, 0x1a, 0x3e, 0xc5, 0x57, 0xf0, 0xbd, 
	0x6b, 0x31, 0x10, 0x3e, 0xa3, 0x59, 0x53, 0xbe, 0x45, 0xcc, 0xa8, 0x3d, 
	0x74, 0xd8, 0x3a, 0x3e, 0xe2, 0x71, 0xdb, 0x3d, 0xd5, 0xc3, 0xb8, 0x3d, 
	0x92, 0x61, 0x26, 0xbe, 0xd2, 0xce, 0x00, 0x3e, 0xe0, 0x93, 0xa4, 0xbb, 
	0xde, 0xc5, 0x36, 0xbe, 0xf0, 0xfc, 0xf6, 0xbc, 0x2c, 0xd8, 0xe8, 0x3d, 
	0x14, 0xf8, 0xeb, 0xbd, 0xf0, 0x37, 0xad, 0xbd, 0xda, 0xc6, 0x25, 0x3e, 
	0x5c, 0x80, 0x03, 0x3d, 0x20, 0x83, 0x1e, 0xbd, 0xd0, 0x4d, 0x08, 0x3d, 
	0xe4, 0x76, 0x12, 0x3e, 0xeb, 0x63, 0x14, 0xbe, 0x08, 0x36, 0xbf, 0x3c, 
	0xbc, 0xf1, 0x56, 0xbe, 0x0c, 0xd0, 0x2b, 0x3d, 0xba, 0xda, 0x20, 0x3e, 
	0x52, 0xec, 0x43, 0xbe, 0x39, 0x99, 0xb6, 0x3a, 0x9d, 0x55, 0x4c, 0x3d, 
	0x2a, 0x5b, 0x27, 0x3e, 0x9d, 0x8b, 0x37, 0x3c, 0xd2, 0x03, 0x49, 0xbd, 
	0xfc, 0x38, 0xc5, 0x39, 0xaf, 0xdf, 0x2e, 0xbd, 0x59, 0x92, 0x59, 0xbe, 
	0xc4, 0xef, 0x7f, 0x3e, 0x68, 0xa1, 0x1d, 0xbd, 0x34, 0xc7, 0x38, 0xbe, 
	0x34, 0x65, 0x1f, 0xbe, 0x08, 0x5c, 0xe5, 0x3d, 0xf5, 0xfa, 0x38, 0xbe, 
	0x3c, 0x81, 0x34, 0xbd, 0x4c, 0x4f, 0xa0, 0x3d, 0xa8, 0x8c, 0x99, 0xbc, 
	0x89, 0x21, 0x52, 0xbc, 0x78, 0x1f, 0x2e, 0xbe, 0xbc, 0xe1, 0x0f, 0x3e, 
	0xe3, 0xf2, 0x8f, 0x3d, 0x8a, 0x92, 0x34, 0xbe, 0xc8, 0xe9, 0x0e, 0x3d, 
	0x66, 0x78, 0x48, 0xbe, 0x9a, 0xc0, 0x54, 0xbe, 0x10, 0x06, 0x1d, 0xbe, 
	0x48, 0xcf, 0xa2, 0x3d, 0x84, 0xb8, 0x83, 0x3d, 0x68, 0x51, 0x6d, 0xbd, 
	0x90, 0xf4, 0x62, 0xbe, 0xeb, 0x38, 0x4c, 0x3e, 0x9d, 0xa8, 0x38, 0x3e, 
	0xc4, 0xd4, 0xc9, 0xbd, 0x51, 0x65, 0x18, 0x3e, 0x70, 0x74, 0xc9, 0xbd, 
	0x85, 0x4f, 0x39, 0x3e, 0xf1, 0x8e, 0x1e, 0xbd, 0x7e, 0x10, 0x38, 0xbe, 
	0x23, 0x78, 0x0a, 0x3e, 0x66, 0x17, 0x43, 0x3e, 0xee, 0xaa, 0x42, 0x3e, 
	0x30, 0x38, 0x92, 0xbc, 0xd8, 0x07, 0x37, 0xbe, 0x28, 0x4b, 0x4f, 0x3d, 
	0xe2, 0x29, 0x9f, 0xbd, 0x50, 0x88, 0x23, 0x3c, 0xee, 0x2c, 0x8d, 0xbd, 
	0x70, 0xa9, 0x93, 0x3c, 0xb0, 0x13, 0x6e, 0xbc, 0x76, 0xdc, 0xc4, 0xbd, 
	0x69, 0x65, 0xea, 0x3c, 0x0e, 0x6b, 0x0f, 0x3e, 0xc9, 0x12, 0x83, 0xbd, 
	0xd0, 0x04, 0xb0, 0x3c, 0xb8, 0xcc, 0x41, 0xbd, 0x4c, 0xb0, 0x3c, 0xbd, 
	0xdf, 0x88, 0x4d, 0xbe, 0x45, 0x9f, 0x16, 0xbe, 0x70, 0x0d, 0xd1, 0xbc, 
	0x69, 0xe4, 0xca, 0xbd, 0x7a, 0x87, 0x1d, 0xbe, 0xc0, 0x0b, 0x2b, 0x3d, 
	0xa6, 0x9a, 0x0a, 0xbe, 0x2c, 0x1a, 0x46, 0x3e, 0x26, 0xee, 0x24, 0xbe, 
	0x6e, 0xc6, 0x87, 0xbd, 0xb1, 0x93, 0x5c, 0x3d, 0x27, 0xeb, 0x20, 0x3e, 
	0xce, 0xb0, 0x4b, 0xbd, 0x38, 0x1e, 0x0d, 0xbe, 0xc6, 0x5d, 0x21, 0x3e, 
	0x23, 0x06, 0x32, 0xbe, 0x07, 0x7e, 0x03, 0x3e, 0xde, 0xaf, 0x35, 0xbe, 
	0xc3, 0x8a, 0xee, 0xbd, 0x40, 0x70, 0x80, 0xbb, 0x10, 0x0d, 0xaf, 0x3d, 
	0x34, 0x24, 0xc2, 0x3d, 0xf2, 0x4c, 0x3a, 0xbe, 0x10, 0x97, 0x37, 0x3c, 
	0x68, 0x41, 0xe0, 0xbc, 0xb7, 0xfb, 0x2e, 0xbe, 0x92, 0x97, 0x8e, 0x3d, 
	0xa7, 0x4b, 0x67, 0xbc, 0x5b, 0xdc, 0x8b, 0x3d, 0xea, 0x27, 0xca, 0x3d, 
	0xf8, 0xd2, 0x90, 0xbd, 0xdd, 0x82, 0xc2, 0x3d, 0x29, 0xd0, 0xae, 0x3c, 
	0xef, 0xe2, 0x2c, 0x3e, 0x8a, 0xaa, 0xf4, 0x3c, 0x41, 0x28, 0xba, 0xbd, 
	0x56, 0x3e, 0x04, 0x3e, 0x9e, 0x06, 0x80, 0xbd, 0x75, 0x82, 0xa4, 0x3d, 
	0x47, 0xe3, 0x3c, 0x3e, 0x11, 0x28, 0x36, 0xbc, 0x84, 0xff, 0x4c, 0xbe, 
	0x56, 0x76, 0x18, 0xbe, 0xcc, 0xaa, 0x24, 0xbd, 0xd1, 0xfe, 0xe3, 0xbd, 
	0x22, 0x9c, 0x0a, 0xbe, 0x44, 0xc5, 0x39, 0x3e, 0x8c, 0x4a, 0x14, 0x3e, 
	0x2a, 0xa2, 0xe7, 0x3d, 0xed, 0xa7, 0x34, 0xbe, 0x1c, 0x5f, 0xcd, 0xbd, 
	0x00, 0x58, 0x64, 0xb9, 0x2b, 0xe2, 0x1e, 0xbe, 0xf3, 0x01, 0x88, 0x3d, 
	0x2c, 0xdf, 0xe5, 0x3d, 0xec, 0xef, 0x4f, 0xbe, 0x23, 0x18, 0xc6, 0x3d, 
	0x39, 0x50, 0xdc, 0xbd, 0x18, 0xf9, 0x2b, 0xbe, 0x92, 0xd8, 0xe2, 0xbd, 
	0x40, 0x74, 0x34, 0xbb, 0x75, 0xca, 0x5e, 0xbe, 0x3a, 0x68, 0x31, 0x3e, 
	0xb1, 0x4e, 0x2e, 0xbe, 0x93, 0x15, 0x39, 0x3e, 0x30, 0x4e, 0xd0, 0xbc, 
	0x04, 0x54, 0x51, 0xbe, 0x88, 0x6d, 0x8b, 0x3d, 0x9a, 0xbf, 0x2f, 0xbe, 
	0x20, 0xd3, 0x83, 0xbc, 0x8a, 0x68, 0x34, 0xbe, 0x11, 0xe8, 0xcc, 0xbd, 
	0xb4, 0xf6, 0x2b, 0xbd, 0x7c, 0xae, 0x17, 0x3e, 0x40, 0x56, 0x19, 0xbd, 
	0xa4, 0x4b, 0x4d, 0xbe, 0x92, 0xe5, 0xfd, 0xbd, 0x72, 0x78, 0xd3, 0x3c, 
	0xc7, 0x46, 0x9c, 0x3d, 0x4d, 0x24, 0xbe, 0xbd, 0x8b, 0x52, 0x3e, 0x3e, 
	0x8b, 0xa0, 0x20, 0xbe, 0xba, 0x2d, 0x19, 0xbe, 0x14, 0xbd, 0x2c, 0x3e, 
	0xc8, 0x2c, 0x27, 0xbe, 0xd1, 0xd5, 0x34, 0xbe, 0x91, 0x16, 0x3a, 0xbe, 
	0x2a, 0x19, 0x39, 0xbe, 0x40, 0x73, 0x75, 0xbb, 0xc6, 0x96, 0x20, 0x3e, 
	0xf8, 0xbc, 0xb3, 0xbc, 0xe3, 0x15, 0x38, 0xbe, 0x83, 0xba, 0x55, 0xbe, 
	0xc8, 0x79, 0xca, 0xbc, 0x72, 0x7e, 0xa6, 0xbd, 0x06, 0x3a, 0xb8, 0xbd, 
	0x22, 0x26, 0x06, 0x3e, 0x9c, 0x2d, 0x1b, 0x3d, 0x36, 0xff, 0xc0, 0xbd, 
	0x7f, 0x17, 0x24, 0x3e, 0x97, 0x82, 0x6e, 0x3d, 0x89, 0xd6, 0x1e, 0xbe, 
	0xd5, 0x13, 0x34, 0xbe, 0x60, 0x27, 0x02, 0x3d, 0xf0, 0x6b, 0xd4, 0xbc, 
	0x80, 0xa4, 0x2f, 0xbe, 0x64, 0x6e, 0x58, 0xbd, 0x18, 0x0d, 0x97, 0xbd, 
	0xb0, 0x95, 0xef, 0xbd, 0xe2, 0x91, 0xdb, 0x3d, 0xff, 0xb9, 0x9e, 0x3c, 
	0x41, 0x3f, 0xf4, 0xbd, 0xd6, 0x17, 0xde, 0xbc, 0xa4, 0xa5, 0x41, 0xbd, 
	0x12, 0xff, 0x22, 0xbe, 0xf0, 0xb8, 0x41, 0xbd, 0xda, 0xe5, 0x08, 0x3e, 
	0x67, 0xde, 0xd3, 0x3d, 0x6c, 0x1f, 0x3f, 0x3c, 0xc1, 0x12, 0xa3, 0x3d, 
	0xd8, 0xa0, 0x92, 0x3d, 0x4e, 0xb3, 0x30, 0x3e, 0xad, 0x0d, 0xd6, 0xbd, 
	0x8d, 0x0d, 0x40, 0xbe, 0xa0, 0xb3, 0x90, 0xbd, 0xc8, 0x62, 0x1e, 0xbd, 
	0x80, 0xe9, 0x3d, 0x3d, 0x94, 0xff, 0x1a, 0xbd, 0x6d, 0x4b, 0x58, 0xbe, 
	0xf7, 0x7b, 0xe9, 0x3d, 0xb5, 0x62, 0x92, 0x3d, 0x8c, 0xd4, 0xc8, 0xbd, 
	0x55, 0xe3, 0xa4, 0x3d, 0x87, 0x13, 0x59, 0xbe, 0xf0, 0x0a, 0x28, 0x3d, 
	0x10, 0x0e, 0x55, 0xbc, 0xf8, 0x20, 0x70, 0xbd, 0x04, 0x7b, 0x41, 0xbe, 
	0x5a, 0x02, 0xc5, 0xbd, 0x6c, 0xd0, 0x08, 0x3e, 0x02, 0xcc, 0x01, 0x3e, 
	0xda, 0x64, 0x00, 0xbe, 0x62, 0x14, 0x90, 0xbc, 0x42, 0x0a, 0xba, 0x3d, 
	0xef, 0xec, 0xb5, 0x3c, 0xa8, 0xda, 0xb6, 0x3c, 0x8e, 0x66, 0xfd, 0xbd, 
	0x54, 0xbb, 0x7b, 0xbd, 0x38, 0xbb, 0xf2, 0x3d, 0xd6, 0x95, 0x29, 0x3e, 
	0xab, 0x53, 0xff, 0x3c, 0x8e, 0x40, 0xbc, 0x3c, 0x22, 0xd7, 0x1d, 0xbe, 
	0xd5, 0x65, 0x28, 0x3e, 0x6e, 0xfe, 0xd3, 0xbd, 0x1e, 0x2b, 0x33, 0x3e, 
	0x7d, 0xa9, 0x35, 0x3e, 0x33, 0xb2, 0x20, 0xbe, 0x80, 0x1f, 0xdc, 0x3c, 
	0x2c, 0x6d, 0x30, 0xbe, 0x2d, 0xeb, 0x42, 0xbe, 0x58, 0x6a, 0x5e, 0x3d, 
	0xf0, 0x6e, 0x68, 0x3d, 0x96, 0x7b, 0x0a, 0xbe, 0x88, 0x8f, 0x06, 0xbe, 
	0xac, 0x1f, 0xc3, 0xbd, 0x8f, 0x78, 0xce, 0x3d, 0xee, 0x71, 0xd0, 0x3d, 
	0xf1, 0x4d, 0x62, 0xbd, 0x91, 0x3b, 0x0e, 0x3e, 0x23, 0x00, 0x2f, 0x3e, 
	0x58, 0xaf, 0x42, 0x3e, 0x24, 0xb4, 0xd2, 0xbd, 0x9f, 0xcb, 0x1f, 0xbe, 
	0x68, 0xb5, 0x69, 0x3d, 0x20, 0x3e, 0x53, 0xbc, 0x77, 0x76, 0xfd, 0xbd, 
	0x5c, 0xfc, 0x40, 0xbd, 0xb0, 0x64, 0x43, 0xbe, 0xe8, 0x6e, 0xf5, 0x3c, 
	0x63, 0x20, 0x25, 0xbe, 0xb9, 0x0c, 0xd2, 0x3d, 0x67, 0x15, 0x2f, 0x3e, 
	0xc1, 0xce, 0xcf, 0xbd, 0x25, 0xb5, 0x07, 0x3e, 0x60, 0xde, 0xb7, 0xbd, 
	0x24, 0x12, 0x1b, 0xbd, 0xe0, 0x54, 0xa8, 0xbc, 0x77, 0xac, 0x1c, 0xbe, 
	0xc0, 0xdb, 0xa8, 0x3d, 0xf9, 0xea, 0x0a, 0xbe, 0x36, 0x4a, 0x53, 0x3e, 
	0x67, 0x88, 0x59, 0xbe, 0x8e, 0xc4, 0x98, 0xbd, 0xb0, 0x05, 0x3b, 0xbd, 
	0xce, 0x5a, 0xdb, 0xbd, 0xc9, 0x4e, 0xfd, 0xbd, 0xe0, 0xcd, 0xb1, 0xbb, 
	0x00, 0xf2, 0xdd, 0x3b, 0xbb, 0x06, 0x42, 0xbe, 0x50, 0xe3, 0x85, 0xbc, 
	0xf7, 0x0f, 0xd3, 0xbd, 0xb4, 0xbe, 0x4e, 0xbe, 0x30, 0x94, 0xe7, 0x3c, 
	0x3c, 0x3b, 0x54, 0x3e, 0xe0, 0x50, 0xea, 0xbd, 0x00, 0xa2, 0xae, 0x3d, 
	0x8e, 0xb4, 0xaf, 0xbd, 0x88, 0xd2, 0x86, 0xbc, 0x07, 0x92, 0xf4, 0x3d, 
	0xa1, 0xd1, 0x97, 0x3d, 0x41, 0x8a, 0x1c, 0xbe, 0xe2, 0xa1, 0x4b, 0x3b, 
	0x46, 0x7d, 0x81, 0xbd, 0xca, 0x6f, 0xe9, 0xbd, 0x58, 0xbd, 0xa8, 0x3c, 
	0xc3, 0xac, 0x44, 0xbe, 0x9d, 0x4c, 0x20, 0x3e, 0xf8, 0xff, 0x33, 0x3d, 
	0x89, 0x17, 0xea, 0xbd, 0x3c, 0xf6, 0x2a, 0x3e, 0x42, 0xa1, 0x08, 0xbe, 
	0xf6, 0x54, 0x2f, 0xbe, 0x20, 0x0f, 0x36, 0x3d, 0xa2, 0x96, 0x14, 0x3e, 
	0x7c, 0x39, 0x27, 0xbd, 0x72, 0x9e, 0xdd, 0xbd, 0xc6, 0x98, 0x52, 0xbe, 
	0xf0, 0xa0, 0x8b, 0x3d, 0x91, 0x4f, 0xb5, 0x3d, 0x13, 0x4c, 0x6d, 0x3d, 
	0x3b, 0x80, 0xb0, 0xbc, 0xc7, 0xbb, 0x29, 0x3d, 0xc8, 0x2e, 0x96, 0x3d, 
	0x6a, 0xa5, 0x03, 0x3e, 0x07, 0x24, 0x15, 0x3d, 0x13, 0x48, 0x2c, 0xbe, 
	0x70, 0x07, 0x78, 0x3c, 0xb3, 0xe5, 0x30, 0xbe, 0x38, 0xc4, 0xab, 0xbd, 
	0x60, 0x0f, 0xa6, 0x3d, 0x30, 0xcc, 0x4f, 0xbd, 0x2a, 0x92, 0x42, 0xbe, 
	0x5c, 0x59, 0x89, 0xbd, 0x20, 0x05, 0x1e, 0x3c, 0x7b, 0xf2, 0x57, 0xbe, 
	0x20, 0x69, 0x02, 0xbc, 0x38, 0x35, 0xd2, 0xbd, 0x80, 0x94, 0xb4, 0x3a, 
	0x30, 0xa2, 0x84, 0xbc, 0xa8, 0xbc, 0x04, 0xbe, 0x2d, 0xf9, 0xb7, 0x3c, 
	0xa6, 0x99, 0xd0, 0x3d, 0x88, 0x69, 0x86, 0xbd, 0x9d, 0x80, 0x1c, 0xbe, 
	0xfc, 0xde, 0xff, 0x3d, 0xd4, 0x13, 0x0d, 0xbe, 0xcc, 0x5a, 0x6f, 0xbd, 
	0xc8, 0x29, 0xb7, 0xbc, 0x4c, 0x3a, 0x0c, 0x3e, 0xc2, 0x05, 0xb2, 0xbd, 
	0xbc, 0xba, 0x38, 0x3e, 0x80, 0xd3, 0xb7, 0xbd, 0xdc, 0x87, 0x29, 0xbe, 
	0xa0, 0x34, 0x2d, 0x3c, 0x31, 0x0f, 0x8d, 0x3d, 0xdb, 0x7a, 0x92, 0xbd, 
	0xad, 0x8d, 0x9b, 0x3d, 0x1a, 0xad, 0xbb, 0x3d, 0x5d, 0x69, 0xc7, 0x3d, 
	0xe2, 0x17, 0x2f, 0x3e, 0xc9, 0x14, 0x9d, 0xbd, 0x6e, 0x06, 0x52, 0xbe, 
	0x02, 0xd9, 0xf1, 0x3d, 0x17, 0x5d, 0xd1, 0x3d, 0x82, 0x6b, 0xc6, 0xbc, 
	0xa8, 0x3e, 0x50, 0xbe, 0x28, 0xa0, 0x81, 0x3c, 0xb1, 0x63, 0x02, 0xbe, 
	0x1b, 0xa6, 0xee, 0xbd, 0xdc, 0xc9, 0x64, 0xbd, 0x70, 0xbf, 0xad, 0x3c, 
	0x28, 0x5c, 0x0e, 0xbe, 0x4a, 0x8b, 0xa0, 0xbd, 0x70, 0x64, 0x03, 0x3e, 
	0x94, 0x24, 0xde, 0x3d, 0x3b, 0x07, 0x17, 0xbe, 0xc8, 0x29, 0x42, 0xbd, 
	0x50, 0xb8, 0x00, 0xbc, 0x0c, 0xfc, 0x31, 0xbe, 0x18, 0x4d, 0xbc, 0xbc, 
	0x24, 0x4a, 0x11, 0x3d, 0x48, 0xf1, 0x06, 0x3d, 0xa8, 0xee, 0x64, 0x3d, 
	0x98, 0x1a, 0xe1, 0x3d, 0x69, 0xa9, 0x37, 0x3e, 0xfc, 0x9a, 0xfe, 0xbd, 
	0x60, 0xaf, 0x96, 0xbd, 0x54, 0x77, 0x4b, 0x3e, 0x69, 0x6b, 0x60, 0xbd, 
	0x5a, 0x36, 0xbe, 0xbd, 0x44, 0xbe, 0xd3, 0x3d, 0xed, 0xd6, 0x67, 0x3d, 
	0x52, 0x81, 0x92, 0x3b, 0x02, 0x4b, 0x81, 0xbc, 0xfd, 0xa7, 0xcf, 0x3d, 
	0xaf, 0x0a, 0x08, 0xbd, 0xc1, 0x55, 0x59, 0x3d, 0x86, 0x0d, 0x0e, 0xbe, 
	0x1d, 0xa2, 0x04, 0x3e, 0x1f, 0x7b, 0x07, 0x3e, 0xbc, 0xe1, 0x51, 0xbe, 
	0xf9, 0xf3, 0x24, 0x3c, 0x3e, 0x21, 0x39, 0x3e, 0xff, 0x20, 0x54, 0xbe, 
	0x5d, 0xbf, 0x31, 0xbe, 0x14, 0xc8, 0xa5, 0x3d, 0x08, 0x4e, 0xbc, 0x3d, 
	0x0f, 0x7b, 0x1a, 0x3e, 0x14, 0x53, 0x1a, 0x3c, 0xdc, 0x0a, 0xb6, 0xbd, 
	0x2e, 0x8f, 0xc1, 0xbd, 0x9f, 0x75, 0x77, 0xbd, 0x8e, 0xf6, 0x13, 0xbe, 
	0x64, 0x35, 0x95, 0x3e, 0x25, 0x53, 0xbb, 0xbc, 0xc0, 0x5b, 0xb4, 0xbd, 
	0x8c, 0xbf, 0x21, 0x3e, 0xf9, 0xab, 0x7f, 0xbd, 0x40, 0xa6, 0x68, 0xbc, 
	0x6d, 0x83, 0xc2, 0xbd, 0x80, 0xe5, 0x0a, 0xbb, 0xb8, 0x4f, 0x35, 0x3d, 
	0xfa, 0xf3, 0x18, 0xbe, 0x50, 0x94, 0x21, 0x3d, 0x22, 0x32, 0x38, 0x3e, 
	0x80, 0xfc, 0x43, 0xbe, 0x00, 0x00, 0x00, 0x00, 0x1e, 0xfd, 0xff, 0xff, 
	0x04, 0x00, 0x00, 0x00, 0x0c, 0x00, 0x00, 0x00, 0x79, 0x6c, 0x77, 0x3f, 
	0xfa, 0x48, 0x03, 0xbe, 0x3a, 0x4d, 0x97, 0xbf, 0x00, 0x00, 0x00, 0x00, 
	0x00, 0x00, 0x00, 0x00, 0x3e, 0xfd, 0xff, 0xff, 0x04, 0x00, 0x00, 0x00, 
	0x00, 0x02, 0x00, 0x00, 0xe8, 0x17, 0x9f, 0xbf, 0x26, 0x12, 0x66, 0x3f, 
	0x00, 0x00, 0x00, 0x00, 0xd7, 0x06, 0x8d, 0x3f, 0x00, 0x00, 0x00, 0x00, 
	0x80, 0xf9, 0xa4, 0xbf, 0x10, 0x22, 0x77, 0xbf, 0x00, 0x00, 0x00, 0x00, 
	0x00, 0x00, 0x00, 0x00, 0x5f, 0x52, 0x03, 0xbf, 0x72, 0x3c, 0xaa, 0x3f, 
	0x00, 0x00, 0x00, 0x00, 0x60, 0xc2, 0xd5, 0x3e, 0xd1, 0x8d, 0x93, 0x3f, 
	0x00, 0x00, 0x00, 0x00, 0x00, 0x00, 0x00, 0x00, 0x99, 0xaf, 0x62, 0xbf, 
	0xdb, 0x75, 0x6c, 0x3f, 0xe8, 0x47, 0x41, 0xbc, 0x2c, 0x4d, 0x46, 0x3f, 
	0x30, 0xae, 0x92, 0xbf, 0x00, 0x00, 0x00, 0x00, 0xff, 0x0e, 0x85, 0x3f, 
	0xf4, 0xe7, 0x9e, 0x3b, 0xd2, 0x7f, 0xa1, 0xbf, 0x00, 0x00, 0x00, 0x00, 
	0x00, 0x00, 0x00, 0x00, 0xff, 0x9e, 0x91, 0x3f, 0x00, 0x00, 0x00, 0x00, 
	0x82, 0x22, 0xa5, 0x3f, 0x8f, 0x20, 0xab, 0xbc, 0x5c, 0x2b, 0xe1, 0xbe, 
	0x00, 0x00, 0x00, 0x00, 0x00, 0x00, 0x00, 0x00, 0xcc, 0x17, 0xbe, 0x3e, 
	0x00, 0x00, 0x00, 0x00, 0x00, 0x00, 0x00, 0x00, 0x9b, 0xed, 0x26, 0x3d, 
	0xad, 0x41, 0xa5, 0xbf, 0x99, 0xe0, 0x98, 0xbf, 0x00, 0x00, 0x00, 0x00, 
	0x00, 0x00, 0x00, 0x00, 0xb4, 0x80, 0x9f, 0x3f, 0x00, 0x00, 0x00, 0x00, 
	0x00, 0x00, 0x00, 0x00, 0x00, 0x00, 0x00, 0x00, 0xfa, 0x5d, 0x5f, 0xbf, 
	0x4c, 0x84, 0x64, 0x3f, 0x00, 0x00, 0x00, 0x00, 0x00, 0x00, 0x00, 0x00, 
	0x34, 0x53, 0xb1, 0xbb, 0x97, 0xe2, 0x9a, 0x3f, 0x4a, 0xbb, 0x8f, 0x3f, 
	0xf2, 0x84, 0x48, 0x3f, 0x00, 0x00, 0x00, 0x00, 0x48, 0x2e, 0xa0, 0xbf, 
	0x00, 0x00, 0x00, 0x00, 0xd7, 0xb0, 0xb3, 0xbf, 0x00, 0x00, 0x00, 0x00, 
	0xf5, 0x56, 0x2a, 0x3f, 0x00, 0x00, 0x00, 0x00, 0x00, 0x00, 0x00, 0x00, 
	0x00, 0x00, 0x00, 0x00, 0x78, 0xd9, 0x80, 0x3f, 0x00, 0x00, 0x00, 0x00, 
	0x00, 0x00, 0x00, 0x00, 0x00, 0x00, 0x00, 0x00, 0x00, 0x00, 0x00, 0x00, 
	0xb8, 0x2e, 0x9d, 0xbf, 0x00, 0x00, 0x00, 0x00, 0x00, 0x00, 0x00, 0x00, 
	0xc9, 0xf5, 0x87, 0x3c, 0x00, 0x00, 0x00, 0x00, 0x16, 0x4c, 0xa2, 0xbf, 
	0x00, 0x00, 0x00, 0x00, 0x00, 0x00, 0x00, 0x00, 0xe3, 0xbd, 0xab, 0xbf, 
	0x00, 0x00, 0x00, 0x00, 0x53, 0x47, 0x1e, 0xbc, 0x21, 0x4e, 0x37, 0xbc, 
	0x00, 0x00, 0x00, 0x00, 0x0d, 0xbc, 0xa8, 0x3f, 0x56, 0x9d, 0x64, 0xbf, 
	0x00, 0x00, 0x00, 0x00, 0x00, 0x00, 0x00, 0x00, 0x7a, 0xe6, 0x80, 0x3f, 
	0x51, 0x27, 0x95, 0x3f, 0x00, 0x00, 0x00, 0x00, 0x00, 0x00, 0x00, 0x00, 
	0xf6, 0xfe, 0x94, 0x3f, 0x00, 0x00, 0x00, 0x00, 0x00, 0x00, 0x00, 0x00, 
	0x00, 0x00, 0x00, 0x00, 0x00, 0x00, 0x00, 0x00, 0x00, 0x00, 0x00, 0x00, 
	0x00, 0x00, 0x00, 0x00, 0xe4, 0xc7, 0x43, 0x3f, 0x00, 0x00, 0x00, 0x00, 
	0x26, 0x8b, 0x99, 0xbf, 0x00, 0x00, 0x00, 0x00, 0x00, 0x00, 0x00, 0x00, 
	0x79, 0x14, 0x07, 0xbf, 0x23, 0xc4, 0x9c, 0xbf, 0x00, 0x00, 0x00, 0x00, 
	0x00, 0x00, 0x00, 0x00, 0x00, 0x00, 0x00, 0x00, 0xa0, 0xf4, 0xf8, 0xbb, 
	0x00, 0x00, 0x00, 0x00, 0x00, 0x00, 0x00, 0x00, 0x00, 0x00, 0x00, 0x00, 
	0x1f, 0xec, 0xa5, 0xbf, 0xbe, 0x5c, 0x08, 0x3f, 0xe1, 0xef, 0x92, 0x3f, 
	0x00, 0x00, 0x00, 0x00, 0x00, 0x00, 0x00, 0x00, 0x00, 0x00, 0x00, 0x00, 
	0x00, 0x00, 0x00, 0x00, 0x82, 0xc9, 0x4d, 0xbf, 0x11, 0x9e, 0xa5, 0x3f, 
	0x1a, 0xcb, 0xfa, 0xbe, 0xc4, 0x5b, 0x85, 0xbc, 0x27, 0x91, 0x50, 0xbf, 
	0x00, 0x00, 0x00, 0x00, 0xd9, 0x02, 0x98, 0xbe, 0xe0, 0x03, 0x7a, 0xbe, 
	0xf7, 0x6e, 0xa8, 0x3f, 0x00, 0x00, 0x00, 0x00, 0x00, 0x00, 0x00, 0x00, 
	0x00, 0x00, 0x00, 0x00, 0x00, 0x00, 0x00, 0x00, 0x00, 0x00, 0x00, 0x00, 
	0xfc, 0xfb, 0xff, 0xff, 0x00, 0x00, 0x00, 0x00, 0x00, 0x00, 0x00, 0x00, 
	0x00, 0x00, 0x00, 0x00, 0x0c, 0xfc, 0xff, 0xff, 0x00, 0x00, 0x00, 0x00, 
	0x00, 0x00, 0x00, 0x00, 0x00, 0x00, 0x00, 0x00, 0x0f, 0x00, 0x00, 0x00, 
	0x4d, 0x4c, 0x49, 0x52, 0x20, 0x43, 0x6f, 0x6e, 0x76, 0x65, 0x72, 0x74, 
	0x65, 0x64, 0x2e, 0x00, 0x01, 0x00, 0x00, 0x00, 0x14, 0x00, 0x00, 0x00, 
	0x00, 0x00, 0x0e, 0x00, 0x18, 0x00, 0x04, 0x00, 0x08, 0x00, 0x0c, 0x00, 
	0x10, 0x00, 0x14, 0x00, 0x0e, 0x00, 0x00, 0x00, 0x14, 0x01, 0x00, 0x00, 
	0x08, 0x01, 0x00, 0x00, 0xfc, 0x00, 0x00, 0x00, 0x14, 0x00, 0x00, 0x00, 
	0x04, 0x00, 0x00, 0x00, 0x04, 0x00, 0x00, 0x00, 0x6d, 0x61, 0x69, 0x6e, 
	0x00, 0x00, 0x00, 0x00, 0x03, 0x00, 0x00, 0x00, 0xa4, 0x00, 0x00, 0x00, 
	0x60, 0x00, 0x00, 0x00, 0x14, 0x00, 0x00, 0x00, 0x00, 0x00, 0x0e, 0x00, 
	0x1a, 0x00, 0x08, 0x00, 0x0c, 0x00, 0x10, 0x00, 0x07, 0x00, 0x14, 0x00, 
	0x0e, 0x00, 0x00, 0x00, 0x00, 0x00, 0x00, 0x09, 0x01, 0x00, 0x00, 0x00, 
	0x24, 0x00, 0x00, 0x00, 0x18, 0x00, 0x00, 0x00, 0x0c, 0x00, 0x00, 0x00, 
	0x00, 0x00, 0x06, 0x00, 0x08, 0x00, 0x04, 0x00, 0x06, 0x00, 0x00, 0x00, 
	0x00, 0x00, 0x80, 0x3f, 0x01, 0x00, 0x00, 0x00, 0x07, 0x00, 0x00, 0x00, 
	0x01, 0x00, 0x00, 0x00, 0x06, 0x00, 0x00, 0x00, 0x00, 0x00, 0x0e, 0x00, 
	0x14, 0x00, 0x00, 0x00, 0x08, 0x00, 0x0c, 0x00, 0x07, 0x00, 0x10, 0x00, 
	0x0e, 0x00, 0x00, 0x00, 0x00, 0x00, 0x00, 0x08, 0x18, 0x00, 0x00, 0x00, 
	0x0c, 0x00, 0x00, 0x00, 0x04, 0x00, 0x00, 0x00, 0xe8, 0xfc, 0xff, 0xff, 
	0x01, 0x00, 0x00, 0x00, 0x06, 0x00, 0x00, 0x00, 0x03, 0x00, 0x00, 0x00, 
	0x05, 0x00, 0x00, 0x00, 0x04, 0x00, 0x00, 0x00, 0x02, 0x00, 0x00, 0x00, 
	0x00, 0x00, 0x0e, 0x00, 0x16, 0x00, 0x00, 0x00, 0x08, 0x00, 0x0c, 0x00, 
	0x07, 0x00, 0x10, 0x00, 0x0e, 0x00, 0x00, 0x00, 0x00, 0x00, 0x00, 0x08, 
	0x24, 0x00, 0x00, 0x00, 0x18, 0x00, 0x00, 0x00, 0x0c, 0x00, 0x00, 0x00, 
	0x00, 0x00, 0x06, 0x00, 0x08, 0x00, 0x07, 0x00, 0x06, 0x00, 0x00, 0x00, 
	0x00, 0x00, 0x00, 0x01, 0x01, 0x00, 0x00, 0x00, 0x05, 0x00, 0x00, 0x00, 
	0x03, 0x00, 0x00, 0x00, 0x00, 0x00, 0x00, 0x00, 0x03, 0x00, 0x00, 0x00, 
	0x01, 0x00, 0x00, 0x00, 0x01, 0x00, 0x00, 0x00, 0x07, 0x00, 0x00, 0x00, 
	0x01, 0x00, 0x00, 0x00, 0x00, 0x00, 0x00, 0x00, 0x08, 0x00, 0x00, 0x00, 
	0x78, 0x02, 0x00, 0x00, 0x08, 0x02, 0x00, 0x00, 0x9c, 0x01, 0x00, 0x00, 
	0x58, 0x01, 0x00, 0x00, 0x10, 0x01, 0x00, 0x00, 0xa4, 0x00, 0x00, 0x00, 
	0x4c, 0x00, 0x00, 0x00, 0x04, 0x00, 0x00, 0x00, 0xbc, 0xfd, 0xff, 0xff, 
	0x34, 0x00, 0x00, 0x00, 0x08, 0x00, 0x00, 0x00, 0x1c, 0x00, 0x00, 0x00, 
	0x14, 0x00, 0x00, 0x00, 0x04, 0x00, 0x00, 0x00, 0x02, 0x00, 0x00, 0x00, 
	0xff, 0xff, 0xff, 0xff, 0x03, 0x00, 0x00, 0x00, 0xa8, 0xfd, 0xff, 0xff, 
	0x08, 0x00, 0x00, 0x00, 0x49, 0x64, 0x65, 0x6e, 0x74, 0x69, 0x74, 0x79, 
	0x00, 0x00, 0x00, 0x00, 0x02, 0x00, 0x00, 0x00, 0x01, 0x00, 0x00, 0x00, 
	0x03, 0x00, 0x00, 0x00, 0x00, 0xfe, 0xff, 0xff, 0x44, 0x00, 0x00, 0x00, 
	0x07, 0x00, 0x00, 0x00, 0x1c, 0x00, 0x00, 0x00, 0x14, 0x00, 0x00, 0x00, 
	0x04, 0x00, 0x00, 0x00, 0x02, 0x00, 0x00, 0x00, 0xff, 0xff, 0xff, 0xff, 
	0x03, 0x00, 0x00, 0x00, 0xec, 0xfd, 0xff, 0xff, 0x1a, 0x00, 0x00, 0x00, 
	0x73, 0x65, 0x71, 0x75, 0x65, 0x6e, 0x74, 0x69, 0x61, 0x6c, 0x2f, 0x64, 
	0x65, 0x6e, 0x73, 0x65, 0x5f, 0x31, 0x2f, 0x42, 0x69, 0x61, 0x73, 0x41, 
	0x64, 0x64, 0x00, 0x00, 0x02, 0x00, 0x00, 0x00, 0x01, 0x00, 0x00, 0x00, 
	0x03, 0x00, 0x00, 0x00, 0x54, 0xfe, 0xff, 0xff, 0x58, 0x00, 0x00, 0x00, 
	0x06, 0x00, 0x00, 0x00, 0x1c, 0x00, 0x00, 0x00, 0x14, 0x00, 0x00, 0x00, 
	0x04, 0x00, 0x00, 0x00, 0x02, 0x00, 0x00, 0x00, 0xff, 0xff, 0xff, 0xff, 
	0x80, 0x00, 0x00, 0x00, 0x40, 0xfe, 0xff, 0xff, 0x2e, 0x00, 0x00, 0x00, 
	0x73, 0x65, 0x71, 0x75, 0x65, 0x6e, 0x74, 0x69, 0x61, 0x6c, 0x2f, 0x64, 
	0x65, 0x6e, 0x73, 0x65, 0x2f, 0x52, 0x65, 0x6c, 0x75, 0x3b, 0x73, 0x65, 
	0x71, 0x75, 0x65, 0x6e, 0x74, 0x69, 0x61, 0x6c, 0x2f, 0x64, 0x65, 0x6e, 
	0x73, 0x65, 0x2f, 0x42, 0x69, 0x61, 0x73, 0x41, 0x64, 0x64, 0x00, 0x00, 
	0x02, 0x00, 0x00, 0x00, 0x01, 0x00, 0x00, 0x00, 0x80, 0x00, 0x00, 0x00, 
	0x22, 0xff, 0xff, 0xff, 0x34, 0x00, 0x00, 0x00, 0x05, 0x00, 0x00, 0x00, 
	0x0c, 0x00, 0x00, 0x00, 0x04, 0x00, 0x00, 0x00, 0x98, 0xfe, 0xff, 0xff, 
	0x19, 0x00, 0x00, 0x00, 0x73, 0x65, 0x71, 0x75, 0x65, 0x6e, 0x74, 0x69, 
	0x61, 0x6c, 0x2f, 0x64, 0x65, 0x6e, 0x73, 0x65, 0x5f, 0x31, 0x2f, 0x4d, 
	0x61, 0x74, 0x4d, 0x75, 0x6c, 0x00, 0x00, 0x00, 0x02, 0x00, 0x00, 0x00, 
	0x03, 0x00, 0x00, 0x00, 0x80, 0x00, 0x00, 0x00, 0x66, 0xff, 0xff, 0xff, 
	0x30, 0x00, 0x00, 0x00, 0x04, 0x00, 0x00, 0x00, 0x0c, 0x00, 0x00, 0x00, 
	0x04, 0x00, 0x00, 0x00, 0xdc, 0xfe, 0xff, 0xff, 0x17, 0x00, 0x00, 0x00, 
	0x73, 0x65, 0x71, 0x75, 0x65, 0x6e, 0x74, 0x69, 0x61, 0x6c, 0x2f, 0x64, 
	0x65, 0x6e, 0x73, 0x65, 0x2f, 0x4d, 0x61, 0x74, 0x4d, 0x75, 0x6c, 0x00, 
	0x02, 0x00, 0x00, 0x00, 0x80, 0x00, 0x00, 0x00, 0x04, 0x00, 0x00, 0x00, 
	0xa6, 0xff, 0xff, 0xff, 0x4c, 0x00, 0x00, 0x00, 0x03, 0x00, 0x00, 0x00, 
	0x0c, 0x00, 0x00, 0x00, 0x04, 0x00, 0x00, 0x00, 0x1c, 0xff, 0xff, 0xff, 
	0x32, 0x00, 0x00, 0x00, 0x73, 0x65, 0x71, 0x75, 0x65, 0x6e, 0x74, 0x69, 
	0x61, 0x6c, 0x2f, 0x64, 0x65, 0x6e, 0x73, 0x65, 0x5f, 0x31, 0x2f, 0x42, 
	0x69, 0x61, 0x73, 0x41, 0x64, 0x64, 0x2f, 0x52, 0x65, 0x61, 0x64, 0x56, 
	0x61, 0x72, 0x69, 0x61, 0x62, 0x6c, 0x65, 0x4f, 0x70, 0x2f, 0x72, 0x65, 
	0x73, 0x6f, 0x75, 0x72, 0x63, 0x65, 0x00, 0x00, 0x01, 0x00, 0x00, 0x00, 
	0x03, 0x00, 0x00, 0x00, 0x00, 0x00, 0x0e, 0x00, 0x14, 0x00, 0x04, 0x00, 
	0x00, 0x00, 0x08, 0x00, 0x0c, 0x00, 0x10, 0x00, 0x0e, 0x00, 0x00, 0x00, 
	0x4c, 0x00, 0x00, 0x00, 0x02, 0x00, 0x00, 0x00, 0x0c, 0x00, 0x00, 0x00, 
	0x04, 0x00, 0x00, 0x00, 0x84, 0xff, 0xff, 0xff, 0x30, 0x00, 0x00, 0x00, 
	0x73, 0x65, 0x71, 0x75, 0x65, 0x6e, 0x74, 0x69, 0x61, 0x6c, 0x2f, 0x64, 
	0x65, 0x6e, 0x73, 0x65, 0x2f, 0x42, 0x69, 0x61, 0x73, 0x41, 0x64, 0x64, 
	0x2f, 0x52, 0x65, 0x61, 0x64, 0x56, 0x61, 0x72, 0x69, 0x61, 0x62, 0x6c, 
	0x65, 0x4f, 0x70, 0x2f, 0x72, 0x65, 0x73, 0x6f, 0x75, 0x72, 0x63, 0x65, 
	0x00, 0x00, 0x00, 0x00, 0x01, 0x00, 0x00, 0x00, 0x80, 0x00, 0x00, 0x00, 
	0x14, 0x00, 0x18, 0x00, 0x04, 0x00, 0x00, 0x00, 0x08, 0x00, 0x0c, 0x00, 
	0x10, 0x00, 0x00, 0x00, 0x00, 0x00, 0x14, 0x00, 0x14, 0x00, 0x00, 0x00, 
	0x34, 0x00, 0x00, 0x00, 0x01, 0x00, 0x00, 0x00, 0x20, 0x00, 0x00, 0x00, 
	0x18, 0x00, 0x00, 0x00, 0x04, 0x00, 0x00, 0x00, 0x02, 0x00, 0x00, 0x00, 
	0xff, 0xff, 0xff, 0xff, 0x04, 0x00, 0x00, 0x00, 0x04, 0x00, 0x04, 0x00, 
	0x04, 0x00, 0x00, 0x00, 0x07, 0x00, 0x00, 0x00, 0x69, 0x6e, 0x70, 0x75, 
	0x74, 0x5f, 0x31, 0x00, 0x02, 0x00, 0x00, 0x00, 0x01, 0x00, 0x00, 0x00, 
	0x04, 0x00, 0x00, 0x00, 0x02, 0x00, 0x00, 0x00, 0x20, 0x00, 0x00, 0x00, 
	0x0c, 0x00, 0x00, 0x00, 0x00, 0x00, 0x06, 0x00, 0x06, 0x00, 0x05, 0x00, 
	0x06, 0x00, 0x00, 0x00, 0x00, 0x19, 0x0a, 0x00, 0x0c, 0x00, 0x07, 0x00, 
	0x00, 0x00, 0x08, 0x00, 0x0a, 0x00, 0x00, 0x00, 0x00, 0x00, 0x00, 0x09, 
	0x03, 0x00, 0x00, 0x00
};
unsigned int MasModel_len = 5536;